// conv1 weights: shape (4, 1, 3, 3) = 36 values
// Order: output_ch, input_ch, row, col
// Placeholder: simple edge-detection-like kernels
// Out_ch 0: horizontal edge
FF
00
01
FF
00
01
FF
00
01
// Out_ch 1: vertical edge
FF
FF
FF
00
00
00
01
01
01
// Out_ch 2: center-surround
FF
FF
FF
FF
08
FF
FF
FF
FF
// Out_ch 3: identity-ish
00
00
00
00
04
00
00
00
00